0011000000000100001000100111011100111111111110000010110011110010000001110101000101000110100111110101000000100111110000000000010000010011111010110111100110111100100000011011001011100101011011111101110111011100111010001011111100000001101111010101111000011111
1111011110001011110000101100110111100101100000100011101111000000010000001111110001011000001101111100011011111011101110011011110010101100001000011000010000000100010111011100001111110001111101001111101011110001000011101011000011111101101111101100010111101101
0000111001000111110010001110110000101011011000000100100000001110110110101001101011110111000110011000110100001111100011110000011111010110001110100000000111110011000111101010000011101110001110111100011110011101111001000111110110000011010001100111111011000001
1110111110110111001001111010001000010000000111110111000101111000000101011110111101011000000100100110111111000001111110101111000011011100110000101011000110100111110111111001111111010111111001001011111011000110111000000100100011001000110100000011001111001100
0000000000000000000011000111111111111110110101101011011110000000000010011101000011110000000011100111101000111111100001110011111101100000011001111110001111110110011110110000110111110101011000001111110111001000010011001101100010110101011110000111101011101111
0011000110000101000100001110000000010000100111011111101011011001111000010111010011011010000000100100011001100111111101111111010111001110111000000111011010000111000111111000111101011011101110111010001111000001000101011000001011011001011011101000111001111011
1101000000100111100110111101100111110000011111011111110010011100110111110100000010111101101101111111100101100011000001100010000000001100101011101011101111001111101011111100011000000000111101010001100011111111000100001001010111011100001101001110011000011000
1000011000001011100111001011111011000110010111111001000001000000000000100111101000000001110000000100110111011110010110000111110110010010111110011110111011111110111110101101110000100000010100000111001110001100001010101111100111111100011110101110000100001001
0110111110001111010010111100001011000001000010011011100010000110010000010111111110010000011000111010010100011111101101100111010010100111101111000010111110001000001001111001010011111101111000100111010011011011001111001011111101010111111000111001011111010000
0000000000000000000011000100010001011100111001110110110101110101101101110101111111101110011110011100001011100011111111100001000011000111110001100010000011111110001100100111100011111101110010100111111101001110101011000001001010011011011111001111111011101101
1011101111111010000000100101111101110111010100000000010111110110111100111011100011111000110011111000111110100111010100000101101011000110000101101000001101111110010000110000111111010101111100111010110111001010111011001111000101111100100100110101000000110011
0101011111101111110111000001000111111011000011001000000010000000111000010101101101100011111000000001101000011011011111101000011110011100110100001101111110101111110101001111010000000111111100001100001101111111100111100101100000000001100011101111000111110111
1110011100001101110010110010001010101001110011111101010000001010000110010111101111110000001111001101111011110111101010111100011110101101111100010001010011110000000001101111111010001001011101110111111111010101111100111110110010000000000001110111111110000001
0000000010011111110111000101000111000100000101011011000110000101011111110011111000001000010110111100000111110011111000010111000110000010011000011000100111111111110111000001101111011100000100001000010111111000100111110101111110100111011000000010100000010011
0000000000000000000001001111100101000000010111100001000000111011111110101111101101111011100000010001101111100000111001101010000001000111100101011100001000010010001100000100011101100000001011100100101101110101110100011101010101100010111100010111110100101100
1011001101111010100000001111101100001111111101111111100000111110000010001000111011111011100111000001000111111111110111111110011000101011111111111111110001111100100111001111000010110011011100111011101011001011111100101000110100000011011000010110000010100011
0011000000000000001110101110101000000011011111110000000011011111011011111000000001001101111000000010100100011000111100010011100100101110101100001010011101001111100111010011011111110001111111000111101001001111011011101111101101100001111000001101101111100111
1110110101110001100111101100001101011000010000000101011110001001111011001110001011110010011111110100000110100000100101001110010001000101111111011110000110000000000000111111111010110111111000001001111110111100001100011111001000001110011110011101111110010110
0000000011000111110100000110000000011101111001011011101000111101010111011011111111101111011000111000110100010110011101010000001100111111000000100110000010011111100011111010100000000111111000101111001011111001000000000100000111011000001100111010010000101011
0000000000000000000010000000011010111110000001000011101110100000001000100001100001101100101110001011111001011101001010000100011110011011100001111111011000010100001111110011110001101100110011110001101101000111100010010011011101101011100000101111100001000011
0100000110000110010111000110111101001000111101111111100100011001011101111011011101111111100000110000000001010100010101111011100000010011111111101011000101111001001111000010111100000000101111111100100111110001100100001000000000111000111011110010100111111111
1010111100110000010011011101000010001110111101011011111111111110010111100110011100101101100011111110000110110111011110101101100000100011010011111111101111001000000111111111101011110101011100111000011010100001110111100110001110101011110101100001110011101100
1110110001111101011111100111110101011010010101110100011111110111011100000000111000000010110110010111010010111110111011011110101110111010000001100111000111111000010001011011111011100000110100000101000000000001111010110110000000000111100111011110000100111110
1111011100001000000111111111011011011000100010000000011110000001010111011011111010011000011001111001101111011101011000010111010110011010010111011100111101101011101000111001110011000111011110010111110000111010011000111000111011010100101000011100000111010001
0000000000000000000010011000000111011100010101100001111100100011100010000000111000010010111101100100000100011111000011110001011101110100010010100001011011101110000000001010000000010010000111110011111110110100011001101100000111110110000010101000011011011110
1011101100111111110111001000111010000011110110000011100111011011111000110000100011111000000000010100000010001111001001111100010000101010000111111111001100000110011011010001000101010111011100111100101000100110111100011111010111111111111101101100000000010000
1001100001011011100100011110101000000000001101101011110101101101111011110010111101100010001101011111000101101011111101110111101001100010011101110111001110110000001000010011100000011100111110111000010101011101111011100001011111000111110110100010101011111001
1111111010000000110111000000000101000010111100001000001111111000110011001111101111111111101110000110000011011111110101111010000001101001110101000000100100001110111111001011111110011110110110111101000000011011111001011111001110111111011111001001110000001110
0011111000000100010010000111000000110110111000001111100101111001011111010011111000000111000111011111100100000010100000000000010001111011110111000010111110001111000111111101011111010100000111100100111000111101110111110000000000011111000111000101001111110100
0000000000000000000010101000010010111110111110100101101111110011110001000000011010010110100001101101100111101111010110001000101111011000001001100001110010110000100011011011111011011110000111110001100011001011100010110001000011100111011101000000000100000011
1011110110111101110111001111011001100011010101111100110000101111000000100111101110000110111011000111111111101000111111111001110111100100111000101111111010111000100111100110011111100111100101000010100100000100000100001111011001011100011011010001101000110000
0111101111001101111001100000011111101010101100100011111111000010101100010100111111010100011111011110100000010100011101110111110110011111110111110000101100101000011100100001111111110011011111100111111110001110001111110000100001010101101100011110011000010001
1111001001110101010111010100000100011011110001110011010000100000000010010000111101111110011110100101000001000001000011110000001111100000000101011111000001110000010001001001110000000000000101110100010000111000000101011000010100110100011110000101111110100000
1010111101110111100010111001110111111001111001101011100111111101110011000000000011110111111110000011100111001000111111011111011000100011111111111011101000100111101111111010011111001101111110111000011001111100110111010001000001111111101001111111110111010010
0000000000000000000000000111101100111101001011100110111101000100011100101100001011111111011101000100000100010001001010111011111100101000011011101111011011101001011110101110101110011111011100010011100001100000001001001100111100110111111110100000001111111111
0000000110111100000111010010000110011111001010011000011000010010011100100000001010000100001000100010000000101011000111111100110111111100011110100111000001000100000000100011111010010100000110111101011111111010111001011111010011000011010000100010100110101101
0001011101111111101110111100110000000101111111110100010010100001110101101110101001110011111011000010001000011111011101001111111100110100011111100110111111000100001011000011101101111001011111111011100101010010101110100111010110010111101011111101001011100111
1110010100000011001000100011110011011001100001111001011111011010001111011111011000000110101111111101000100011111001010110111100000000101111010111010111101110011010000111010111101111111011000001011001111011111011000011111110000001001100110101000111000100001
0100000101010000111000000101111011110011011100111011001011011000000100000001000001000000011100000000011111111101111110100111001001111010011111111001111000001111111111101010001011111000000000001111100100100011000000001001111100000111001111011011110111100101
0000000000000000000000011011110111011111110001101111111101000011111000101100011011110110011110111101110100011111010000010101101101001111100010100000100000010111010100000010010010100001101101111000011111001001110011011101000111110011011101100000010101101100
1111001100000101000000110000111111100111100110000001011000001100000111111111010010111001001111101111011000100111110000000000010000010011011100011111001001000110001111000000011101110011000011111100011111011001111010011111010111111110111000011000000001110100
1011101111110000000001100001010011110001111101100000001011101111110111100001001110110000011000111110001111110000111110010011111101100001000000010001111110101000000010010010110000010001111101011111100100101111001101111011100000000000010101010001001011101011
1111111010111101010110001111111111001011100000000011010001101110111001101111110010001111110001101111110000100001101110000100000000111101110000001110110110000100010000100100001001110110100000001000111111010000001010110111000011111111111110110001110011110001
1000000010111111000011111101011111000111111110101100000011111110010000000111111111110000001001000000000011110011111010000000010011011000111011111010000111101101110011011101001000010001000111101011110001111011000000010010000010100111100101000100111111001100
0000000000000000000010101000000011000001110100011100011101100111110000011111111111110000000011011011100100100011001110101010100001110111100111011110110010000101000010110011100011101101001111111100011101100000000101001111010101101011100000001000001000011110
0000100011111001111011110110111011110111011110111011000011101110011110111111101110111001010111101101000011000111110110000111010111001110000001011111100111111100001000001010000110101000001010000100101111000100011110111000001001111110100000011101011010101000
0001111100001111111001011111111101111010000001010101100111011101100000001000011110110011111101011101100100001001000010000100010110100001100100001001000010110011100010000010011111111101111111011011110011101111001001111111110100000111101010100001101000001101
0001001010111001000001111011111110110010010101110000010001011010110001100001101011111001110110001011110011000001101010110101100001000100000111101111011111110000011111101001110010001111010001111000010000001110111110011111100010000010001111001110110100110111
0101000111010111011001011111010111000010111101111000100010000100001111101010111011111111101000000001111000001000000101011111110001111100100111101111000011001111111111011010011111010001000010011011011100111110000000011010011001100111110000100110010000100110
0000000000000000000011100011111101000001111100011011100000111000010101010001100111110100011110111001111011011100001000001100101110001011101011001100010111100010110000110010011111011111111000001000101101000100001011111111001111101011111111011011101111010000

